10001101
10010111
11000100
00000000
10011010
10000011
10010111
10010011
10010001
00000110
00001111
10000011
10001000
00011100
00011110
00011010
10011000
10001101
00001111
10010111
00101110
10010001
11001011
10010011
00000010
00010010
00011110
00011001
00000001
00001010
00110011
00010001
10011000
10110111
